{
  "version": "1.0",
  "truncation": null,
  "padding": null,
  "added_tokens": [
    {
      "id": 0,
      "content": "<pad>",
      "single_word": false,
      "lstrip": false,
      "rstrip": false,
      "normalized": false,
      "special": true
    },
    {
      "id": 1,
      "content": "<unk>",
      "single_word": false,
      "lstrip": false,
      "rstrip": false,
      "normalized": false,
      "special": true
    }
  ],
  "normalizer": null,
  "pre_tokenizer": {
    "type": "ByteLevel",
    "add_prefix_space": false,
    "trim_offsets": true,
    "use_regex": true
  },
  "post_processor": null,
  "decoder": {
    "type": "ByteLevel",
    "add_prefix_space": true,
    "trim_offsets": true,
    "use_regex": true
  },
  "model": {
    "type": "BPE",
    "dropout": null,
    "unk_token": null,
    "continuing_subword_prefix": null,
    "end_of_word_suffix": null,
    "fuse_unk": false,
    "byte_fallback": false,
    "ignore_merges": false,
    "vocab": {
      "<pad>": 0,
      "<unk>": 1,
      ",": 2,
      ".": 3,
      "B": 4,
      "C": 5,
      "G": 6,
      "H": 7,
      "K": 8,
      "L": 9,
      "M": 10,
      "N": 11,
      "P": 12,
      "R": 13,
      "S": 14,
      "T": 15,
      "V": 16,
      "X": 17,
      "a": 18,
      "b": 19,
      "c": 20,
      "d": 21,
      "e": 22,
      "g": 23,
      "h": 24,
      "i": 25,
      "k": 26,
      "l": 27,
      "m": 28,
      "n": 29,
      "o": 30,
      "p": 31,
      "q": 32,
      "r": 33,
      "s": 34,
      "t": 35,
      "u": 36,
      "v": 37,
      "x": 38,
      "y": 39,
      "¡": 40,
      "¢": 41,
      "£": 42,
      "¥": 43,
      "§": 44,
      "¨": 45,
      "©": 46,
      "ª": 47,
      "¬": 48,
      "¯": 49,
      "°": 50,
      "±": 51,
      "²": 52,
      "³": 53,
      "´": 54,
      "µ": 55,
      "·": 56,
      "¹": 57,
      "º": 58,
      "»": 59,
      "½": 60,
      "¿": 61,
      "Ã": 62,
      "Ä": 63,
      "Å": 64,
      "Æ": 65,
      "á": 66,
      "Ċ": 67,
      "Ġ": 68,
      "ģ": 69,
      "ĥ": 70,
      "ĩ": 71,
      "ī": 72,
      "ĭ": 73,
      "į": 74,
      "ı": 75,
      "Ĳ": 76,
      "ĳ": 77,
      "ĵ": 78,
      "Ļ": 79,
      "Ľ": 80,
      "Ŀ": 81,
      "Ł": 82,
      "ł": 83,
      "Ń": 84,
      "á»": 85,
      "ng": 86,
      "Ġt": 87,
      "áº": 88,
      "hÃ": 89,
      "nh": 90,
      "Æ°": 91,
      "Ġng": 92,
      "Ġc": 93,
      "Ãł": 94,
      "Äĳ": 95,
      "Ġm": 96,
      "ĠÄĳ": 97,
      "Ġth": 98,
      "Æ°á»": 99,
      "há»": 100,
      "Ġtr": 101,
      "Ġl": 102,
      "iá»": 103,
      "Æ¡": 104,
      "Ġn": 105,
      "Ġb": 106,
      "Ġg": 107,
      "Ġp": 108,
      "Ŀi": 109,
      "á»Ļ": 110,
      "ai": 111,
      "inh": 112,
      "Ġs": 113,
      "hÃº": 114,
      "ĠÄĳÃ": 115,
      "iá»ģ": 116,
      "á»Ļt": 117,
      "ThÃº": 118,
      "ong": 119,
      "¡i": 120,
      "Ġh": 121,
      "Ġv": 122,
      "Ľc": 123,
      "ĠthÃ": 124,
      "ĠngÆ°á»": 125,
      "ĠcÃ": 126,
      "Æ°á»Ľc": 127,
      "Ġláº": 128,
      "iá»ģu": 129,
      "ThÃºy": 130,
      "ĠngÆ°á»Ŀi": 131,
      "em": 132,
      "´ng": 133,
      "Ãª": 134,
      "Ġk": 135,
      "Ġx": 136,
      "Ġnh": 137,
      "Æ°Æ¡": 138,
      "Ãłng": 139,
      "Ġmá»Ļt": 140,
      "Ġba": 141,
      "Ġph": 142,
      "Æ°Æ¡ng": 143,
      "Tr": 144,
      "au": 145,
      "iÃª": 146,
      "qu": 147,
      "uy": 148,
      "¢n": 149,
      "¬nh": 150,
      "¯c": 151,
      "Äĥ": 152,
      "Ġem": 153,
      "Ġqu": 154,
      "áº£": 155,
      "áº¿": 156,
      "áº¯c": 157,
      "hÃł": 158,
      "Ġchá»": 159,
      "Ãłi": 160,
      "Ġthu": 161,
      "Ġtrong": 162,
      "ĠnÆ°á»Ľc": 163,
      "ĠthÃ´ng": 164,
      "Äĥm": 165,
      "Gi": 166,
      "Hai": 167,
      "Kiá»ģu": 168,
      "Láº": 169,
      "Má»Ļt": 170,
      "VÃ": 171,
      "ay": 172,
      "anh": 173,
      "en": 174,
      "oi": 175,
      "¥y": 176,
      "§n": 177,
      "¨n": 178,
      "¨o": 179,
      "¯ng": 180,
      "±a": 181,
      "Ã¡": 182,
      "Ã¬nh": 183,
      "Ġhá»": 184,
      "Ġai": 185,
      "ĠKiá»ģu": 186,
      "ĠVÃ": 187,
      "á»ī": 188,
      "á»Ń": 189,
      "á»Ŀi": 190,
      "á»±a": 191,
      "ĠtÃłi": 192,
      "Ġtá»±a": 193,
      "áº¥y": 194,
      "hÃ©": 195,
      "hÃ¨o": 196,
      "Ġngo": 197,
      "Ġnghá»": 198,
      "ĠnghÃ¨o": 199,
      "Ġminh": 200,
      "ĠthÆ¡": 201,
      "Ġthay": 202,
      "Ġtháº¥y": 203,
      "ĠtrÆ°á»Ľc": 204,
      "ĠlÃł": 205,
      "Æ¡n": 206,
      "ĠnhÃł": 207,
      "ĠnÄĥm": 208,
      "ĠgÃ": 209,
      "ĠgÆ°Æ¡ng": 210,
      "Ġsáº¯c": 211,
      "ĠÄĳÃ¨n": 212,
      "Ġhai": 213,
      "ĠhÆ¡n": 214,
      "ĠvÃłng": 215,
      "ĠcÃ³": 216,
      "Ġláº¡i": 217,
      "Ġxanh": 218,
      "Ġnhau": 219,
      "Ġpháº": 220,
      "iÃªn": 221,
      "áº¿t": 222,
      "Ġchá»ĭ": 223,
      "Ġthuá»": 224,
      "Gia": 225,
      "ĠVÃ¢n": 226,
      "Bá»": 227,
      "Cu": 228,
      "CÃ": 229,
      "Chá»": 230,
      "Cáº£": 231,
      "LÃł": 232,
      "Minh": 233,
      "Nhá»": 234,
      "Ph": 235,
      "Ráº": 236,
      "Sáº¯c": 237,
      "Soi": 238,
      "TÃłi": 239,
      "Tá»ī": 240,
      "Xem": 241,
      "an": 242,
      "ch": 243,
      "dÃ": 244,
      "hiÃª": 245,
      "hen": 246,
      "iáº¿t": 247,
      "on": 248,
      "uá»Ļ": 249,
      "¡u": 250,
      "¡nh": 251,
      "¢u": 252,
      "¥c": 253,
      "©ng": 254,
      "ªm": 255,
      "±ng": 256,
      "²n": 257,
      "²ng": 258,
      "³i": 259,
      "³ng": 260,
      "´i": 261,
      "´n": 262,
      "µi": 263,
      "µn": 264,
      "·t": 265,
      "·ng": 266,
      "¹p": 267,
      "¹ng": 268,
      "ÃŃ": 269,
      "Ã´ng": 270,
      "Ã²ng": 271,
      "ÄĲ": 272,
      "Å©ng": 273,
      "ĠThÃºy": 274,
      "ĠhÃł": 275,
      "ĠGia": 276,
      "ĠMinh": 277,
      "ĠTá»ī": 278,
      "ĠdÃ": 279,
      "ģn": 280,
      "ĩm": 281,
      "ĩnh": 282,
      "įc": 283,
      "ĳn": 284,
      "ĵi": 285,
      "ĵng": 286,
      "Ľn": 287,
      "Ŀng": 288,
      "Ńn": 289,
      "á»ĥ": 290,
      "á»ı": 291,
      "á»¯ng": 292,
      "á»¥c": 293,
      "á»ģn": 294,
      "á»ĩnh": 295,
      "á»įc": 296,
      "á»ĵi": 297,
      "á»Ľn": 298,
      "Ġta": 299,
      "Ġtáº": 300,
      "ĠtÆ°": 301,
      "Ġtinh": 302,
      "Ġtuy": 303,
      "ĠtÃ¬nh": 304,
      "ĠtiÃªn": 305,
      "ĠtÃŃ": 306,
      "áº»": 307,
      "áº¡i": 308,
      "áºµn": 309,
      "áº·t": 310,
      "áº¹p": 311,
      "hÃ¢n": 312,
      "hÃ¡u": 313,
      "hÃ´n": 314,
      "Ġnguy": 315,
      "ĠnghiÃª": 316,
      "Ġngá»ĵi": 317,
      "ĠcÃłng": 318,
      "Ġcon": 319,
      "Ġcuá»Ļ": 320,
      "ĠcÅ©ng": 321,
      "ĠchÃ¡u": 322,
      "Ãło": 323,
      "ĠmÃł": 324,
      "ĠmÃ¡": 325,
      "ĠmÃ¬nh": 326,
      "Ġmá»ĩnh": 327,
      "Ġmáº·t": 328,
      "ĠÄĳiá»ģu": 329,
      "ĠÄĳau": 330,
      "ĠÄĳá»Ľn": 331,
      "ĠÄĳáº¹p": 332,
      "ĠÄĳÃło": 333,
      "ĠthÆ°á»": 334,
      "ĠthÆ°Æ¡ng": 335,
      "há»¥": 336,
      "Ġtriá»ģu": 337,
      "ĠtrÃłng": 338,
      "Ġtruy": 339,
      "Ġtrá»Ŀi": 340,
      "ĠtrÃ´ng": 341,
      "ĠlÃ²ng": 342,
      "Ġlá»¥c": 343,
      "iá»Ł": 344,
      "iá»ĩm": 345,
      "Ġná»Ń": 346,
      "Ġbá»ī": 347,
      "Ġbiáº¿t": 348,
      "Ġbá»ĥ": 349,
      "ĠghÃ©": 350,
      "Ġghen": 351,
      "Ġgiá»Ł": 352,
      "ĠphÃº": 353,
      "ĠphÃ¢n": 354,
      "Ġphá»¥": 355,
      "Ġsoi": 356,
      "ĠsÃ¡": 357,
      "Ġsá»Ń": 358,
      "Ġsáºµn": 359,
      "ĠÄĳÃ£": 360,
      "ĠÄĳÃ¬nh": 361,
      "ĠÄĳÃ¡nh": 362,
      "ĠÄĳÃ´i": 363,
      "iá»ģn": 364,
      "Ġhiá»ģn": 365,
      "ĠviÃªn": 366,
      "Ġvá»¯ng": 367,
      "Ġváº»": 368,
      "ĠthÃªm": 369,
      "ĠthÃ³i": 370,
      "ĠcÃ²n": 371,
      "ĠcÃµi": 372,
      "ĠcÃ¹ng": 373,
      "Ġláº½": 374,
      "Ġláº§n": 375,
      "Ġláº·ng": 376,
      "Ãªn": 377,
      "Ġkinh": 378,
      "ĠkhÃ©": 379,
      "ĠkhÃ´n": 380,
      "Ġkiá»ĩm": 381,
      "Ġxinh": 382,
      "Ġxáº¿": 383,
      "Ġnhiá»ģu": 384,
      "Ġnhá»ı": 385,
      "Ġphong": 386,
      "ĠphÆ°Æ¡ng": 387,
      "Tráº£": 388,
      "TrÄĥm": 389,
      "Trá»Ŀi": 390,
      "Ġqua": 391,
      "Ġquáº£": 392,
      "Ġquen": 393,
      "Ġchá»¯": 394,
      "Láº¡": 395,
      "Láº¡i": 396,
      "Ġhá»į": 397,
      "Ġhá»ĵng": 398,
      "Ġngoan": 399,
      "Ġngoáº¡i": 400,
      "Ġnghá»ģ": 401,
      "Ġnghá»ĩ": 402,
      "ĠthÆ¡m": 403,
      "ĠgÃ¬": 404,
      "ĠgÃ¡i": 405,
      "Ġpháº§n": 406,
      "Ġpháº³ng": 407,
      "Ġthuá»·": 408,
      "Ġthuá»Ł": 409,
      "Bá»ĳn": 410,
      "Cung": 411,
      "CÃ³": 412,
      "Chá»¯": 413,
      "Cáº£o": 414,
      "Nhá»¯ng": 415,
      "Phong": 416,
      "Ráº±ng": 417,
      "ÄĲá»įc": 418,
      "ĠhÃłn": 419,
      "ĠTá»īng": 420,
      "ĠdÃ¢u": 421,
      "ĠtáºŃn": 422,
      "Ġtuyáº¿t": 423,
      "ĠtÃŃnh": 424,
      "ĠnguyÃªn": 425,
      "ĠnghiÃªng": 426,
      "Ġcuá»Ļc": 427,
      "ĠthÆ°á»Ŀng": 428,
      "Ġtruyá»ģn": 429,
      "Ġná»Ńa": 430,
      "ĠghÃ©t": 431,
      "ĠsÃ¡ch": 432,
      "ĠkhÃ©o": 433,
      "Ġxáº¿p": 434,
      "Tráº£i": 435
    },
    "merges": [
      [
        "á",
        "»"
      ],
      [
        "n",
        "g"
      ],
      [
        "Ġ",
        "t"
      ],
      [
        "á",
        "º"
      ],
      [
        "h",
        "Ã"
      ],
      [
        "n",
        "h"
      ],
      [
        "Æ",
        "°"
      ],
      [
        "Ġ",
        "ng"
      ],
      [
        "Ġ",
        "c"
      ],
      [
        "Ã",
        "ł"
      ],
      [
        "Ä",
        "ĳ"
      ],
      [
        "Ġ",
        "m"
      ],
      [
        "Ġ",
        "Äĳ"
      ],
      [
        "Ġt",
        "h"
      ],
      [
        "Æ°",
        "á»"
      ],
      [
        "h",
        "á»"
      ],
      [
        "Ġt",
        "r"
      ],
      [
        "Ġ",
        "l"
      ],
      [
        "i",
        "á»"
      ],
      [
        "Æ",
        "¡"
      ],
      [
        "Ġ",
        "n"
      ],
      [
        "Ġ",
        "b"
      ],
      [
        "Ġ",
        "g"
      ],
      [
        "Ġ",
        "p"
      ],
      [
        "Ŀ",
        "i"
      ],
      [
        "á»",
        "Ļ"
      ],
      [
        "a",
        "i"
      ],
      [
        "i",
        "nh"
      ],
      [
        "Ġ",
        "s"
      ],
      [
        "hÃ",
        "º"
      ],
      [
        "ĠÄĳ",
        "Ã"
      ],
      [
        "iá»",
        "ģ"
      ],
      [
        "á»Ļ",
        "t"
      ],
      [
        "T",
        "hÃº"
      ],
      [
        "o",
        "ng"
      ],
      [
        "¡",
        "i"
      ],
      [
        "Ġ",
        "h"
      ],
      [
        "Ġ",
        "v"
      ],
      [
        "Ľ",
        "c"
      ],
      [
        "Ġt",
        "hÃ"
      ],
      [
        "Ġng",
        "Æ°á»"
      ],
      [
        "Ġc",
        "Ã"
      ],
      [
        "Æ°á»",
        "Ľc"
      ],
      [
        "Ġl",
        "áº"
      ],
      [
        "iá»ģ",
        "u"
      ],
      [
        "ThÃº",
        "y"
      ],
      [
        "ĠngÆ°á»",
        "Ŀi"
      ],
      [
        "e",
        "m"
      ],
      [
        "´",
        "ng"
      ],
      [
        "Ã",
        "ª"
      ],
      [
        "Ġ",
        "k"
      ],
      [
        "Ġ",
        "x"
      ],
      [
        "Ġ",
        "nh"
      ],
      [
        "Æ°",
        "Æ¡"
      ],
      [
        "Ãł",
        "ng"
      ],
      [
        "Ġm",
        "á»Ļt"
      ],
      [
        "Ġb",
        "a"
      ],
      [
        "Ġp",
        "h"
      ],
      [
        "Æ°Æ¡",
        "ng"
      ],
      [
        "T",
        "r"
      ],
      [
        "a",
        "u"
      ],
      [
        "i",
        "Ãª"
      ],
      [
        "q",
        "u"
      ],
      [
        "u",
        "y"
      ],
      [
        "¢",
        "n"
      ],
      [
        "¬",
        "nh"
      ],
      [
        "¯",
        "c"
      ],
      [
        "Ä",
        "ĥ"
      ],
      [
        "Ġ",
        "em"
      ],
      [
        "Ġ",
        "qu"
      ],
      [
        "áº",
        "£"
      ],
      [
        "áº",
        "¿"
      ],
      [
        "áº",
        "¯c"
      ],
      [
        "hÃ",
        "ł"
      ],
      [
        "Ġc",
        "há»"
      ],
      [
        "Ãł",
        "i"
      ],
      [
        "Ġth",
        "u"
      ],
      [
        "Ġtr",
        "ong"
      ],
      [
        "Ġn",
        "Æ°á»Ľc"
      ],
      [
        "ĠthÃ",
        "´ng"
      ],
      [
        "Äĥ",
        "m"
      ],
      [
        "G",
        "i"
      ],
      [
        "H",
        "ai"
      ],
      [
        "K",
        "iá»ģu"
      ],
      [
        "L",
        "áº"
      ],
      [
        "M",
        "á»Ļt"
      ],
      [
        "V",
        "Ã"
      ],
      [
        "a",
        "y"
      ],
      [
        "a",
        "nh"
      ],
      [
        "e",
        "n"
      ],
      [
        "o",
        "i"
      ],
      [
        "¥",
        "y"
      ],
      [
        "§",
        "n"
      ],
      [
        "¨",
        "n"
      ],
      [
        "¨",
        "o"
      ],
      [
        "¯",
        "ng"
      ],
      [
        "±",
        "a"
      ],
      [
        "Ã",
        "¡"
      ],
      [
        "Ã",
        "¬nh"
      ],
      [
        "Ġ",
        "há»"
      ],
      [
        "Ġ",
        "ai"
      ],
      [
        "Ġ",
        "Kiá»ģu"
      ],
      [
        "Ġ",
        "VÃ"
      ],
      [
        "á»",
        "ī"
      ],
      [
        "á»",
        "Ń"
      ],
      [
        "á»",
        "Ŀi"
      ],
      [
        "á»",
        "±a"
      ],
      [
        "Ġt",
        "Ãłi"
      ],
      [
        "Ġt",
        "á»±a"
      ],
      [
        "áº",
        "¥y"
      ],
      [
        "hÃ",
        "©"
      ],
      [
        "hÃ",
        "¨o"
      ],
      [
        "Ġng",
        "o"
      ],
      [
        "Ġng",
        "há»"
      ],
      [
        "Ġng",
        "hÃ¨o"
      ],
      [
        "Ġm",
        "inh"
      ],
      [
        "Ġth",
        "Æ¡"
      ],
      [
        "Ġth",
        "ay"
      ],
      [
        "Ġth",
        "áº¥y"
      ],
      [
        "Ġtr",
        "Æ°á»Ľc"
      ],
      [
        "Ġl",
        "Ãł"
      ],
      [
        "Æ¡",
        "n"
      ],
      [
        "Ġn",
        "hÃł"
      ],
      [
        "Ġn",
        "Äĥm"
      ],
      [
        "Ġg",
        "Ã"
      ],
      [
        "Ġg",
        "Æ°Æ¡ng"
      ],
      [
        "Ġs",
        "áº¯c"
      ],
      [
        "ĠÄĳÃ",
        "¨n"
      ],
      [
        "Ġh",
        "ai"
      ],
      [
        "Ġh",
        "Æ¡n"
      ],
      [
        "Ġv",
        "Ãłng"
      ],
      [
        "ĠcÃ",
        "³"
      ],
      [
        "Ġláº",
        "¡i"
      ],
      [
        "Ġx",
        "anh"
      ],
      [
        "Ġnh",
        "au"
      ],
      [
        "Ġph",
        "áº"
      ],
      [
        "iÃª",
        "n"
      ],
      [
        "áº¿",
        "t"
      ],
      [
        "Ġchá»",
        "ĭ"
      ],
      [
        "Ġthu",
        "á»"
      ],
      [
        "Gi",
        "a"
      ],
      [
        "ĠVÃ",
        "¢n"
      ],
      [
        "B",
        "á»"
      ],
      [
        "C",
        "u"
      ],
      [
        "C",
        "Ã"
      ],
      [
        "C",
        "há»"
      ],
      [
        "C",
        "áº£"
      ],
      [
        "L",
        "Ãł"
      ],
      [
        "M",
        "inh"
      ],
      [
        "N",
        "há»"
      ],
      [
        "P",
        "h"
      ],
      [
        "R",
        "áº"
      ],
      [
        "S",
        "áº¯c"
      ],
      [
        "S",
        "oi"
      ],
      [
        "T",
        "Ãłi"
      ],
      [
        "T",
        "á»ī"
      ],
      [
        "X",
        "em"
      ],
      [
        "a",
        "n"
      ],
      [
        "c",
        "h"
      ],
      [
        "d",
        "Ã"
      ],
      [
        "h",
        "iÃª"
      ],
      [
        "h",
        "en"
      ],
      [
        "i",
        "áº¿t"
      ],
      [
        "o",
        "n"
      ],
      [
        "u",
        "á»Ļ"
      ],
      [
        "¡",
        "u"
      ],
      [
        "¡",
        "nh"
      ],
      [
        "¢",
        "u"
      ],
      [
        "¥",
        "c"
      ],
      [
        "©",
        "ng"
      ],
      [
        "ª",
        "m"
      ],
      [
        "±",
        "ng"
      ],
      [
        "²",
        "n"
      ],
      [
        "²",
        "ng"
      ],
      [
        "³",
        "i"
      ],
      [
        "³",
        "ng"
      ],
      [
        "´",
        "i"
      ],
      [
        "´",
        "n"
      ],
      [
        "µ",
        "i"
      ],
      [
        "µ",
        "n"
      ],
      [
        "·",
        "t"
      ],
      [
        "·",
        "ng"
      ],
      [
        "¹",
        "p"
      ],
      [
        "¹",
        "ng"
      ],
      [
        "Ã",
        "Ń"
      ],
      [
        "Ã",
        "´ng"
      ],
      [
        "Ã",
        "²ng"
      ],
      [
        "Ä",
        "Ĳ"
      ],
      [
        "Å",
        "©ng"
      ],
      [
        "Ġ",
        "ThÃºy"
      ],
      [
        "Ġ",
        "hÃł"
      ],
      [
        "Ġ",
        "Gia"
      ],
      [
        "Ġ",
        "Minh"
      ],
      [
        "Ġ",
        "Tá»ī"
      ],
      [
        "Ġ",
        "dÃ"
      ],
      [
        "ģ",
        "n"
      ],
      [
        "ĩ",
        "m"
      ],
      [
        "ĩ",
        "nh"
      ],
      [
        "į",
        "c"
      ],
      [
        "ĳ",
        "n"
      ],
      [
        "ĵ",
        "i"
      ],
      [
        "ĵ",
        "ng"
      ],
      [
        "Ľ",
        "n"
      ],
      [
        "Ŀ",
        "ng"
      ],
      [
        "Ń",
        "n"
      ],
      [
        "á»",
        "ĥ"
      ],
      [
        "á»",
        "ı"
      ],
      [
        "á»",
        "¯ng"
      ],
      [
        "á»",
        "¥c"
      ],
      [
        "á»",
        "ģn"
      ],
      [
        "á»",
        "ĩnh"
      ],
      [
        "á»",
        "įc"
      ],
      [
        "á»",
        "ĵi"
      ],
      [
        "á»",
        "Ľn"
      ],
      [
        "Ġt",
        "a"
      ],
      [
        "Ġt",
        "áº"
      ],
      [
        "Ġt",
        "Æ°"
      ],
      [
        "Ġt",
        "inh"
      ],
      [
        "Ġt",
        "uy"
      ],
      [
        "Ġt",
        "Ã¬nh"
      ],
      [
        "Ġt",
        "iÃªn"
      ],
      [
        "Ġt",
        "ÃŃ"
      ],
      [
        "áº",
        "»"
      ],
      [
        "áº",
        "¡i"
      ],
      [
        "áº",
        "µn"
      ],
      [
        "áº",
        "·t"
      ],
      [
        "áº",
        "¹p"
      ],
      [
        "hÃ",
        "¢n"
      ],
      [
        "hÃ",
        "¡u"
      ],
      [
        "hÃ",
        "´n"
      ],
      [
        "Ġng",
        "uy"
      ],
      [
        "Ġng",
        "hiÃª"
      ],
      [
        "Ġng",
        "á»ĵi"
      ],
      [
        "Ġc",
        "Ãłng"
      ],
      [
        "Ġc",
        "on"
      ],
      [
        "Ġc",
        "uá»Ļ"
      ],
      [
        "Ġc",
        "Å©ng"
      ],
      [
        "Ġc",
        "hÃ¡u"
      ],
      [
        "Ãł",
        "o"
      ],
      [
        "Ġm",
        "Ãł"
      ],
      [
        "Ġm",
        "Ã¡"
      ],
      [
        "Ġm",
        "Ã¬nh"
      ],
      [
        "Ġm",
        "á»ĩnh"
      ],
      [
        "Ġm",
        "áº·t"
      ],
      [
        "ĠÄĳ",
        "iá»ģu"
      ],
      [
        "ĠÄĳ",
        "au"
      ],
      [
        "ĠÄĳ",
        "á»Ľn"
      ],
      [
        "ĠÄĳ",
        "áº¹p"
      ],
      [
        "ĠÄĳ",
        "Ãło"
      ],
      [
        "Ġth",
        "Æ°á»"
      ],
      [
        "Ġth",
        "Æ°Æ¡ng"
      ],
      [
        "há»",
        "¥"
      ],
      [
        "Ġtr",
        "iá»ģu"
      ],
      [
        "Ġtr",
        "Ãłng"
      ],
      [
        "Ġtr",
        "uy"
      ],
      [
        "Ġtr",
        "á»Ŀi"
      ],
      [
        "Ġtr",
        "Ã´ng"
      ],
      [
        "Ġl",
        "Ã²ng"
      ],
      [
        "Ġl",
        "á»¥c"
      ],
      [
        "iá»",
        "Ł"
      ],
      [
        "iá»",
        "ĩm"
      ],
      [
        "Ġn",
        "á»Ń"
      ],
      [
        "Ġb",
        "á»ī"
      ],
      [
        "Ġb",
        "iáº¿t"
      ],
      [
        "Ġb",
        "á»ĥ"
      ],
      [
        "Ġg",
        "hÃ©"
      ],
      [
        "Ġg",
        "hen"
      ],
      [
        "Ġg",
        "iá»Ł"
      ],
      [
        "Ġp",
        "hÃº"
      ],
      [
        "Ġp",
        "hÃ¢n"
      ],
      [
        "Ġp",
        "há»¥"
      ],
      [
        "Ġs",
        "oi"
      ],
      [
        "Ġs",
        "Ã¡"
      ],
      [
        "Ġs",
        "á»Ń"
      ],
      [
        "Ġs",
        "áºµn"
      ],
      [
        "ĠÄĳÃ",
        "£"
      ],
      [
        "ĠÄĳÃ",
        "¬nh"
      ],
      [
        "ĠÄĳÃ",
        "¡nh"
      ],
      [
        "ĠÄĳÃ",
        "´i"
      ],
      [
        "iá»ģ",
        "n"
      ],
      [
        "Ġh",
        "iá»ģn"
      ],
      [
        "Ġv",
        "iÃªn"
      ],
      [
        "Ġv",
        "á»¯ng"
      ],
      [
        "Ġv",
        "áº»"
      ],
      [
        "ĠthÃ",
        "ªm"
      ],
      [
        "ĠthÃ",
        "³i"
      ],
      [
        "ĠcÃ",
        "²n"
      ],
      [
        "ĠcÃ",
        "µi"
      ],
      [
        "ĠcÃ",
        "¹ng"
      ],
      [
        "Ġláº",
        "½"
      ],
      [
        "Ġláº",
        "§n"
      ],
      [
        "Ġláº",
        "·ng"
      ],
      [
        "Ãª",
        "n"
      ],
      [
        "Ġk",
        "inh"
      ],
      [
        "Ġk",
        "hÃ©"
      ],
      [
        "Ġk",
        "hÃ´n"
      ],
      [
        "Ġk",
        "iá»ĩm"
      ],
      [
        "Ġx",
        "inh"
      ],
      [
        "Ġx",
        "áº¿"
      ],
      [
        "Ġnh",
        "iá»ģu"
      ],
      [
        "Ġnh",
        "á»ı"
      ],
      [
        "Ġph",
        "ong"
      ],
      [
        "Ġph",
        "Æ°Æ¡ng"
      ],
      [
        "Tr",
        "áº£"
      ],
      [
        "Tr",
        "Äĥm"
      ],
      [
        "Tr",
        "á»Ŀi"
      ],
      [
        "Ġqu",
        "a"
      ],
      [
        "Ġqu",
        "áº£"
      ],
      [
        "Ġqu",
        "en"
      ],
      [
        "Ġchá»",
        "¯"
      ],
      [
        "Láº",
        "¡"
      ],
      [
        "Láº",
        "¡i"
      ],
      [
        "Ġhá»",
        "į"
      ],
      [
        "Ġhá»",
        "ĵng"
      ],
      [
        "Ġngo",
        "an"
      ],
      [
        "Ġngo",
        "áº¡i"
      ],
      [
        "Ġnghá»",
        "ģ"
      ],
      [
        "Ġnghá»",
        "ĩ"
      ],
      [
        "ĠthÆ¡",
        "m"
      ],
      [
        "ĠgÃ",
        "¬"
      ],
      [
        "ĠgÃ",
        "¡i"
      ],
      [
        "Ġpháº",
        "§n"
      ],
      [
        "Ġpháº",
        "³ng"
      ],
      [
        "Ġthuá»",
        "·"
      ],
      [
        "Ġthuá»",
        "Ł"
      ],
      [
        "Bá»",
        "ĳn"
      ],
      [
        "Cu",
        "ng"
      ],
      [
        "CÃ",
        "³"
      ],
      [
        "Chá»",
        "¯"
      ],
      [
        "Cáº£",
        "o"
      ],
      [
        "Nhá»",
        "¯ng"
      ],
      [
        "Ph",
        "ong"
      ],
      [
        "Ráº",
        "±ng"
      ],
      [
        "ÄĲ",
        "á»įc"
      ],
      [
        "ĠhÃł",
        "n"
      ],
      [
        "ĠTá»ī",
        "ng"
      ],
      [
        "ĠdÃ",
        "¢u"
      ],
      [
        "Ġtáº",
        "Ńn"
      ],
      [
        "Ġtuy",
        "áº¿t"
      ],
      [
        "ĠtÃŃ",
        "nh"
      ],
      [
        "Ġnguy",
        "Ãªn"
      ],
      [
        "ĠnghiÃª",
        "ng"
      ],
      [
        "Ġcuá»Ļ",
        "c"
      ],
      [
        "ĠthÆ°á»",
        "Ŀng"
      ],
      [
        "Ġtruy",
        "á»ģn"
      ],
      [
        "Ġná»Ń",
        "a"
      ],
      [
        "ĠghÃ©",
        "t"
      ],
      [
        "ĠsÃ¡",
        "ch"
      ],
      [
        "ĠkhÃ©",
        "o"
      ],
      [
        "Ġxáº¿",
        "p"
      ],
      [
        "Tráº£",
        "i"
      ]
    ]
  }
}